{"vocab":["\n"," ","!","\"","#","$","%","&","'","(",")","*","+",",","-",".","/","0","1","2","3","4","5","6","7","8","9",":",";","<","=",">","?","@","A","B","C","D","E","F","G","H","I","J","K","L","M","N","O","P","Q","R","S","T","U","V","W","X","Y","Z","[","\\","]","^","_","`","a","b","c","d","e","f","g","h","i","j","k","l","m","n","o","p","q","r","s","t","u","v","w","x","y","z","{","|","}","~","'s",",\"","If","In","It","Re","Th","Wh","ab","ac","ad","ag","al","am","an","ap","ar","as","at","av","aw","ay","be","bo","br","bu","by","ca","ce","ch","ck","cl","co","ct","da","de","do","du","ed","ef","el","em","en","ep","er","es","ex","fe","ft","ga","ge","ha","he","ho","ic","id","if","ig","il","im","in","ip","ir","is","it","iv","iz","ke","ld","le","li","lo","ly","ma","me","mo","mu","ne","no","nt","ob","oc","of","ol","om","on","oo","op","or","ot","ou","ow","pa","pe","pl","po","pr","pt","qu","ra","re","ro","ru","s,","s.","sa","se","sh","sm","so","sp","ss","st","su","sy","ta","th","to","tr","ty","ul","um","un","up","ur","us","ut","ve","vi","wa","we","wh","wi","y.","For","How","The","acc","ace","ach","ack","act","age","ail","ain","all","and","ans","ant","ard","are","ari","ark","arm","arr","ary","ask","ass","ate","att","ava","avo","bas","beg","beh","ber","bet","ble","bot","bre","but","can","cap","cav","cer","ces","che","clo","col","com","con","cor","cre","cur","dan","dec","def","dep","der","des","dif","dis","eas","ect","ed,","ed.","enc","end","ens","ent","equ","erv","es,","es.","ess","est","exp","ext","fer","fic","fir","for","ful","fun","fut","gen","ger","has","hel","how","ial","ich","ick","ide","ier","ies","ifi","ify","igh","ign","ild","ile","ill","ind","ine","inf","ing","int","inv","ion","ior","ire","ish","isk","ist","it.","its","ity","ive","ize","kes","led","lim","loc","log","low","ly.","man","mat","may","med","mem","min","mis","mob","mov","new","not","now","obs","ome","one","ong","ood","ord","ore","org","orm","ory","oug","oun","our","ous","out","par","pec","per","ple","ply","por","pos","pre","pro","pur","rec","red","rel","ren","res","ret","rom","rop","say","sim","sit","ste","str","sum","sup","sur","ten","ter","the","tho","thr","tim","tra","tre","ual","ult","upd","ure","urg","urn","use","uto","val","vel","ven","ver","vis","way","whe","wor","Mine","This","When","able","abli","adap","ally","alre","also","alth","ance","appe","arch","area","arge","arly","asks","ated","ateg","ater","ates","auto","avig","base","been","both","brid","care","cave","ces,","ces.","cess","chan","choo","comb","comm","comp","conf","cons","cont","crop","dama","dest","dire","dist","does","empt","ence","ency","enem","erve","ever","exam","expl","fact","fail","farm","ffic","food","fore","form","from","fter","furn","game","have","help","iate","ible","ical","ider","ient","ies,","ies.","ific","ight","imal","inal","ing,","ing.","insp","into","ion.","iple","iron","item","ity.","ives","ject","king","know","land","lava","lear","lect","less","lock","long","main","make","many","mark","ment","more","most","mult","near","need","ning","norm","only","open","oper","ored","ough","ould","ound","ount","over","part","path","plac","plan","play","port","pose","pres","prog","prot","prov","raft","rain","rand","rare","reas","reat","reco","redu","reli","rent","repe","requ","resp","risk","rout","safe","same","sequ","shel","ship","sign","sing","situ","some","spec","stop","stor","stru","such","sume","syst","tain","take","task","term","tern","than","that","them","ther","they","this","time","ting","tool","trip","ures","used","valu","vent","vill","wall","want","ward","ways","what","when","with","wood","work","ying","-term","activ","allow","appro","area,","areas","arget","assum","ating","ation","ative","avail","avoid","aware","base,","based","becom","begin","behav","betwe","block","build","cause","chang","chest","conne","const","corre","cover","craft","ction","diffe","ected","ement","empor","enemy","enter","equip","espec","evalu","ever,","every","exist","exped","feren","fight","first","food,","found","gener","ially","ident","ility","inter","ision","items","ities","ition","large","later","ledge","level","light","limit","manag","might","navig","needs","onger","ordin","organ","other","ource","prior","produ","ption","quant","reach","recog","remem","requi","round","route","sever","sible","small","space","stand","state","stead","stile","still","stone","survi","task,","task.","tasks","their","there","thing","those","tools","trans","treat","ually","under","uring","using","vious","viron","wants","water","where","which","while","wood,","world","During","ablish","access","action","allows","alread","amount","animal","appear","assist","ation,","ation.","become","before","better","bility","blocks","change","combat","comple","compon","contin","create","damage","danger","depend","design","destin","determ","diffic","direct","dition","during","enough","ensive","ential","explic","explor","future","gather","ground","health","ically","import","inform","intend","invent","items,","making","memory","mining","moving","nearby","necess","object","observ","obtain","partic","perman","player","prepar","proble","provid","random","rather","reason","recogn","record","reduce","remain","resour","return","route.","search","sequen","should","simply","single","source","stored","struct","system","target","threat","tools,","travel","useful","Instead","ability","actions","already","another","appropr","aterial","attempt","because","becomes","between","blocks,","careful","certain","collect","command","complet","connect","contain","context","continu","correct","current","disting","example","hostile","inspect","instead","interru","lection","mediate","missing","organiz","perform","placing","player.","prerequ","prevent","priorit","problem","process","progres","project","provide","recover","reduces","request","require","several","shelter","signifi","storage","strateg","terrain","through","village","whether","without","However,","approach","behavior","building","complete","consider","crafting","decision","discover","distance","distingu","ditional","emporary","evaluate","example,","expected","explicit","fficient","identify","intended","location","maintain","material","movement","multiple","organize","particul","planning","player's","position","possible","prevents","previous","progress","remember","repeated","required","requires","resource","sequence","specific","surround","survival","valuable","Minecraft","available","component","condition","construct","dangerous","decisions","determine","different","difficult","efficient","equipment","establish","exploring","gathering","immediate","important","inventory","location,","locations","materials","matically","necessary","objective","permanent","prerequis","recognize","resource,","resources","situation","struction","structure","temporary","therefore","transport","vironment","additional","collecting","continuous","equipment,","especially","expedition","management","materials,","objective.","particular","prioritize","reasonable","repeatedly","resources,","resources.","significan","structure,","structures","sufficient","understand","appropriate","distinguish","environment","exploration","immediately","information","instruction","preparation","prerequisit","significant","surrounding","unnecessary","construction","environment.","information.","automatically","transportation"],"merges":[["r","e"],["t","h"],["i","n"],["a","n"],["e","r"],["o","n"],["a","t"],["th","e"],["o","u"],["e","n"],["o","r"],["in","g"],["e","s"],["s","t"],["i","on"],["i","t"],["o","t"],["a","l"],["p","l"],["l","d"],["c","t"],["s","h"],["an","d"],["e","d"],["a","y"],["a","r"],["b","ot"],["b","e"],["ou","ld"],["sh","ould"],["a","s"],["t","o"],["en","t"],["i","s"],["l","e"],["s","e"],["r","o"],["l","y"],["at","ion"],["c","o"],["c","an"],["re","s"],["pl","ay"],["play","er"],["h","e"],["r","a"],["i","m"],["l","o"],["c","on"],["e","m"],["c","es"],["q","u"],["s",","],["v","e"],["c","e"],["e","x"],["i","d"],["i","c"],["th","er"],["o","f"],["f","or"],["n","e"],["p","ro"],["at","e"],["co","m"],["a","b"],["u","n"],["u","r"],["I","f"],["ou","r"],["t","er"],["th","at"],["w","h"],["c","h"],["o","re"],["i","f"],["u","se"],["a","v"],["a","re"],["g","e"],["i","l"],["u","l"],["st","r"],["i","g"],["lo","c"],["ct","ion"],["res","our"],["a","in"],["d","e"],["s","."],["m","ay"],["T","he"],["v","er"],["re","qu"],["e","ct"],["p","or"],["ab","le"],["o","b"],["str","u"],["es","t"],["as","k"],["an","t"],["s","u"],["m","e"],["i","r"],["a","c"],["o","o"],["por","t"],["b","u"],["m","ent"],["a","p"],["n","ot"],["s","o"],["f","e"],["in","e"],["n","t"],["i","al"],["i","ve"],["p","re"],["i","re"],["ces","s"],["at","er"],["c","a"],["i","z"],["resour","ces"],["oo","d"],["p","r"],["f","ore"],["ou","t"],["i","st"],["stru","ct"],["p","e"],["f","ul"],["f","t"],["ra","ft"],["g","er"],["wh","en"],["t","ask"],["c","raft"],["ou","s"],["t","ain"],["loc","k"],["th","an"],["at","ed"],["a","d"],["ex","pl"],["p","o"],["b","lock"],["ar","y"],["m","a"],["w","i"],["w","he"],["wi","th"],["i","es"],["i","p"],["o","w"],["u","re"],["j","ect"],["p","er"],["d","er"],["ca","use"],["ig","h"],["it","s"],["for","m"],["al","ly"],["re","nt"],["s","a"],["it","y"],["pl","e"],["i","ld"],["g","a"],["c","re"],["ir","on"],["p","t"],["p","ar"],["i","le"],["bu","ild"],["o","l"],["requ","ire"],["i","ate"],["un","der"],["b","as"],["ob","ject"],["resour","ce"],["a","il"],["iz","e"],["a","ct"],["use","ful"],["a","ction"],["ater","ial"],["m","o"],["igh","t"],["m","aterial"],["v","al"],["loc","ation"],["a","ge"],["it","em"],["f","ic"],["i","or"],["it","ion"],["w","or"],["ou","n"],["d","an"],["dan","ger"],["s","p"],["d","if"],["W","h"],["on","e"],["im","port"],["ra","ther"],["be","cause"],["b","le"],["h","as"],["en","d"],["Wh","en"],["'","s"],["v","ent"],["M","ine"],["Mine","craft"],["be","com"],["import","ant"],["al","so"],["ar","m"],["a","m"],["lo","w"],["t","r"],["v","iron"],["viron","ment"],["o","ther"],["st","and"],["id","e"],["ne","ed"],["ga","ther"],["ro","m"],["w","e"],["f","ood"],["f","rom"],["k","e"],["en","vironment"],["m","ore"],["ne","cess"],["il","l"],["pro","v"],["e","ver"],["av","o"],["avo","id"],["con","t"],["I","t"],["oun","d"],["i","ent"],["under","stand"],["l","i"],["player","'s"],["ation","."],["com","m"],["pl","an"],["h","a"],["c","ur"],["r","out"],["in","ter"],["ar","ge"],["d","u"],["the","re"],["po","s"],["con","s"],["ap","pro"],["ur","n"],["build","ing"],["struct","ure"],["m","an"],["m","ain"],["de","c"],["s","ing"],["or","y"],["ra","in"],["t","im"],["bu","t"],["re","co"],["in","form"],["be","fore"],["e","qu"],["f","fic"],["ne","ar"],["m","in"],["f","arm"],["equ","ip"],["be","t"],["necess","ary"],["equip","ment"],["al","l"],["val","u"],["expl","or"],["at","t"],["ex","p"],["an","ce"],["ul","t"],["s","ur"],["i","ble"],["wh","ile"],["sa","fe"],["d","es"],["le","ct"],["av","ail"],["cur","rent"],["re","at"],["ig","n"],["bas","e"],["s","y"],["to","ol"],["ffic","ient"],["st","e"],["whe","ther"],["st","or"],["u","t"],["co","l"],["id","er"],["b","y"],["ing",","],["on","g"],["ha","ve"],["sy","st"],["syst","em"],["stru","ction"],["T","h"],["ou","g"],["oug","h"],["em","ent"],["o","m"],["e","l"],["i","v"],["re","t"],["n","ow"],["m","ed"],["cons","ider"],["an","s"],["id","ent"],["a","ch"],["are","a"],["stor","age"],["object","ive"],["whe","re"],["wor","ld"],["es",","],["a","g"],["v","i"],["avail","able"],["en","c"],["ch","an"],["a","ce"],["d","ist"],["in","t"],["par","t"],["k","ing"],["rout","e"],["prov","ide"],["ever","y"],["or","d"],["ter","m"],["m","em"],["block","s"],["k","now"],["danger","ous"],["ation",","],["d","o"],["dif","fe"],["ve","l"],["ed",","],["ne","w"],["med","iate"],["t","ra"],["s","im"],["cre","ate"],["mo","v"],["es","s"],["o","p"],["there","fore"],["u","s"],["col","lect"],["bet","we"],["betwe","en"],["tim","e"],["ret","urn"],["l","arge"],["inform","ation"],["u","res"],["h","o"],["it","ies"],["ter","rain"],["re","pe"],["is","ion"],["Th","is"],["ar","d"],["ing","."],["pr","ior"],["ou","nt"],["ed","."],["im","mediate"],["as","s"],["reco","g"],["recog","n"],["be","h"],["requ","est"],["in","to"],["c","l"],["pe","c"],["s","it"],["pl","y"],["appro","pr"],["appropr","iate"],["com","ple"],["comple","t"],["requ","i"],["requi","res"],["dec","ision"],["com","b"],["p","a"],["if","y"],["diffe","rent"],["ob","s"],["il","ity"],["ask","s"],["en","em"],["in","vent"],["or","g"],["org","an"],["tr","ans"],["comm","and"],["w","ay"],["material","s"],["es","."],["al","low"],["becom","e"],["recogn","ize"],["ex","t"],["cont","in"],["contin","u"],["l","ong"],["wh","at"],["beh","av"],["behav","ior"],["ac","k"],["s","ible"],["n","ing"],["w","ood"],["r","ound"],["on","ly"],["gather","ing"],["un","necessary"],["en","ce"],["struct","ures"],["de","p"],["dep","end"],["d","ition"],["do","es"],["trans","port"],["the","m"],["near","by"],["em","por"],["min","ing"],["per","form"],["need","s"],["invent","ory"],["con","struction"],["st","ile"],["d","a"],["ur","ing"],["in","d"],["ly","."],["sit","u"],["con","tain"],["d","est"],["pl","ac"],["de","term"],["determ","ine"],["re","du"],["b","o"],["ho","stile"],["craft","ing"],["item","s"],["er","v"],["pr","ot"],["empor","ary"],["b","er"],["ste","ad"],["repe","ated"],["food",","],["pt","ion"],["im","al"],["se","qu"],["becom","es"],["f","er"],["t","y"],["resources",","],["pro","cess"],["ect","ed"],["v","ill"],["ic","ally"],["main","tain"],["com","p"],["tra","vel"],["with","out"],[",","\""],["at","es"],["av","ig"],["m","at"],["u","to"],["pos","sible"],["are","as"],["ab","li"],["abli","sh"],["chan","g"],["ic","al"],["ac","c"],["sim","ply"],["w","ant"],["s","ay"],["so","me"],["g","en"],["ar","ly"],["se","ver"],["sever","al"],["al","th"],["st","one"],["est","ablish"],["t","emporary"],["en","ough"],["ro","p"],["an","other"],["ob","tain"],["re","c"],["em","pt"],["da","ma"],["f","ail"],["I","n"],["y","ing"],["d","is"],["w","a"],["at","ive"],["ident","ify"],["a","uto"],["gen","er"],["be","g"],["beg","in"],["ate","g"],["u","p"],["th","reat"],["sh","el"],["shel","ter"],["pro","g"],["prog","res"],["valu","able"],["the","y"],["ore","d"],["p","res"],["pre","par"],["s","pec"],["if","ic"],["ass","ist"],["re","as"],["reas","on"],["re","n"],["att","empt"],["ma","ke"],["en","s"],["su","m"],["pa","th"],["n","avig"],["r","u"],["e","fficient"],["require","d"],["he","l"],["hel","p"],["e","valu"],["b","r"],["y","."],["i","ple"],["con","struct"],["ab","ility"],["he","alth"],["o","ver"],["ex","am"],["f","ir"],["po","se"],["s","ign"],["su","ch"],["organ","iz"],["er","ve"],["m","u"],["c","ap"],["sur","vi"],["survi","val"],["ar","r"],["re","mem"],["sa","me"],["am","ount"],["an","imal"],["part","ic"],["re","d"],["t","ing"],["fir","st"],["h","ow"],["vi","ous"],["v","is"],["appro","ach"],["v","en"],["ord","in"],["comb","at"],["m","is"],["re","main"],["des","ign"],["ic","k"],["l","ater"],["ar","ch"],["it","."],["evalu","ate"],["c","er"],["cer","tain"],["su","p"],["be","en"],["partic","ul"],["ic","h"],["d","ire"],["u","m"],["enem","y"],["at","ing"],["man","ag"],["explor","ation"],["l","ight"],["wor","k"],["o","c"],["in","sp"],["de","f"],["situ","ation"],["pre","vent"],["a","w"],["objective","."],["tool","s,"],["re","l"],["progres","s"],["our","ce"],["ar","k"],["bo","th"],["wh","ich"],["complet","e"],["pre","vious"],["dist","ance"],["if","i"],["th","r"],["thr","ough"],["dif","fic"],["diffic","ult"],["ity","."],["e","as"],["area",","],["w","ater"],["insp","ect"],["m","ult"],["tr","ip"],["ch","est"],["n","o"],["res","p"],["allow","s"],["f","ight"],["pro","du"],["w","ard"],["mov","ement"],["obs","erv"],["t","a"],["l","ess"],["remem","ber"],["repeated","ly"],["se","arch"],["e","p"],["the","ir"],["reco","ver"],["i","sh"],["F","or"],["o","me"],["resources","."],["manag","ement"],["sp","ace"],["material","s,"],["le","ar"],["plan","ning"],["ch","oo"],["want","s"],["ent","er"],["s","s"],["ens","ive"],["ac","cess"],["ap","pe"],["mis","sing"],["f","act"],["l","ed"],["exp","ed"],["exped","ition"],["c","or"],["th","o"],["pro","ble"],["ex","ist"],["in","struction"],["sur","round"],["ar","i"],["ial","ly"],["ies","."],["ca","ve"],["m","ob"],["exam","ple"],["sign","ifi"],["signifi","can"],["significan","t"],["dama","ge"],["equipment",","],["l","im"],["lim","it"],["d","uring"],["location",","],["co","ver"],["vill","age"],["appe","ar"],["cont","ext"],["iv","es"],["mult","iple"],["int","end"],["con","dition"],["task","."],["th","is"],["al","re"],["alre","ad"],["alread","y"],["arge","t"],["pos","ition"],["proble","m"],["con","st"],["ces","."],["o","per"],["transport","ation"],["or","m"],["us","ed"],["str","ateg"],["prior","it"],["location","s"],["in","stead"],["g","round"],["sequ","ence"],["example",","],["ever",","],["c","are"],["base",","],["ion","."],["as","sum"],["st","ate"],["collect","ing"],["t","arget"],["bas","ed"],["mem","ory"],["b","re"],["in","f"],["task","s"],["exp","ected"],["st","op"],["pro","ject"],["decision","s"],["fe","ren"],["n","orm"],["man","y"],["t","re"],["tool","s"],["f","un"],["block","s,"],["op","en"],["priorit","ize"],["s","m"],["sm","all"],["av","a"],["spec","ific"],["care","ful"],["ma","king"],["p","ur"],["k","es"],["i","er"],["m","ight"],["dition","al"],["qu","ant"],["f","ter"],["resource",","],["st","ill"],["H","ow"],["How","ever,"],["is","k"],["continu","ous"],["prov","id"],["environment","."],["ent","ial"],["br","id"],["cor","re"],["u","al"],["redu","ces"],["f","ut"],["fut","ure"],["re","ach"],["mat","ically"],["ga","me"],["lo","g"],["surround","ing"],["wood",","],["f","ound"],["s","ource"],["le","vel"],["action","s"],["prepar","ation"],["e","f"],["c","rop"],["comp","on"],["compon","ent"],["act","iv"],["t","reat"],["dest","in"],["ter","n"],["reason","able"],["organ","ize"],["w","all"],["plac","ing"],["ad","ditional"],["-","term"],["m","ark"],["rec","ord"],["structure",","],["intend","ed"],["bet","ter"],["r","isk"],["con","ne"],["su","fficient"],["way","s"],["l","and"],["th","ing"],["le","ction"],["c","av"],["u","sing"],["inter","ru"],["corre","ct"],["prevent","s"],["redu","ce"],["task",","],["inform","ation."],["auto","matically"],["ur","g"],["item","s,"],["D","uring"],["ies",","],["es","pec"],["espec","ially"],["explor","ing"],["l","ava"],["t","en"],["immediate","ly"],["f","urn"],["in","al"],["r","and"],["rand","om"],["dire","ct"],["ces",","],["sing","le"],["ta","ke"],["u","ally"],["su","me"],["dis","cover"],["per","man"],["perman","ent"],["particul","ar"],["R","e"],["pre","requ"],["prerequ","is"],["prerequis","it"],["sequ","en"],["player","."],["conne","ct"],["led","ge"],["chan","ge"],["st","ored"],["c","he"],["route","."],["mov","ing"],["b","ility"],["dist","ing"],["disting","u"],["distingu","ish"],["tho","se"],["c","k"],["ra","re"],["In","stead"],["re","li"],["expl","ic"],["explic","it"],["aw","are"],["con","f"],["up","d"],["ad","ap"],["c","lo"],["in","v"],["enc","y"],["on","ger"],["mo","st"],["sh","ip"]]}